3b
eb
00
44
c6
ff
cb
84
00
97
00
97
00
97
00
97
00
97
00
97
00
97
00
97
00
f7
ff
69
ff
9b
ff
aa
fe
f8
00
0e
00
70
01
0f
04
ca
10
70
dc
4d
ed
1c
e9
84
00
ff
5e
89
f6
db
de
52
ee
d8
00
a5
00
a5
00
a5
00
a5
00
a5
00
a5
00
a5
00
a5
00
a5
00
a5
00
a5
00
a5
00
a5
00
a5
00
a5
00
a5
00
a5
01
0d
00
2e
01
a8
fc
e2
00
02
00
a1
fc
07
02
fd
00
56
00
6b
fc
75
ff
0c
04
d4
fc
c4
03
a1
f9
58
01
86
17
4f
10
22
43
7a
ff
00
73
8e
43
00
40
00
40
00
40
00
40
00
40
00
40
00
40
00
40
fd
10
fd
d1
fe
1b
fc
2b
fb
c6
fd
c9
fd
f6
fd
c7
03
91
10
ff
ee
c0
73
bd
fa
d2
6d
d0
99
4c
e1
c6
56
85
ed
ca
94
ee
c0
4c
cc
c1
af
00
95
da
ae
e6
c8
43
98
00
a9
00
a9
00
a9
00
a9
fe
5e
00
6a
00
32
02
05
02
ed
10
ff
86
ff
78
fb
6f
fc
d7
fc
17
fb
4b
f9
94
fa
ea
ff
a8
fb
a2
ff
19
ef
99
f9
bb
fd
ac
fa
c0
fc
50
fe
41
fe
5e
fb
3b
fb
e3
fc
55
fc
af
f8
de
fa
0e
ff
c3
ff
6f
fd
c2
fe
2c
fe
0f
fe
46
fa
8e
f7
b9
ff
99
fe
74
fe
e7
fa
02
fd
e2
fc
c1
80
00
ee
f7
ff
9e
fc
c9
ff
6e
ee
61
ee
2b
f0
3c
80
00
ef
47
ff
fd
fd
47
ff
c1
f8
20
f6
c3
fc
bf
fc
56
fd
48
ff
62
fd
5e
fd
66
d1
67
d3
fc
fd
f0
fb
ab
fd
83
05
af
fe
fa
02
7a
00
9d
00
f2
02
34
01
22
01
c5
