3b
eb
00
44
c7
ff
ca
84
00
97
0f
4f
66
f9
df
ac
ef
70
0d
06
e1
0d
04
c5
10
6f
dc
4d
ed
1c
e7
83
00
ff
5d
89
f6
da
dd
52
ed
d7
00
a4
11
60
2b
1b
dc
d7
00
70
be
c0
63
02
04
b0
75
c7
9f
14
4c
4c
bd
3a
39
56
18
00
17
3e
10
23
44
78
ff
00
74
8c
43
00
40
d1
1d
d3
e1
ac
2b
bc
4d
c6
df
4d
c8
03
93
10
ff
ee
c0
72
bd
fa
d3
6c
cf
98
4a
e0
c5
55
83
ec
c8
92
ed
bf
4a
cb
bf
ad
00
94
da
ad
e6
c7
43
97
00
a8
e5
d0
6a
03
12
0a
02
eb
10
ff
86
ff
77
fb
5b
fc
d8
fc
04
fb
31
f9
98
fa
e1
ff
a9
fb
9a
ff
20
ef
91
f9
bd
fd
a5
fa
ad
fc
48
fe
42
fe
59
fb
6a
fb
e3
fc
57
fc
b2
f8
e5
fa
0e
ff
c3
ff
6e
fd
c2
fe
2e
fe
04
fe
41
fa
a7
f7
ce
ff
99
fe
77
fe
e7
fa
04
fd
fc
fc
d1
80
00
ee
0d
ff
9f
fc
c0
ff
6d
ee
80
ee
24
f0
2c
80
00
ef
1a
ff
fd
fd
4c
ff
c0
f8
2f
f6
95
fc
c0
fc
62
fd
4e
ff
61
fd
5b
fd
58
d1
32
d5
61
fd
f1
fb
a1
fd
83
05
b1
fe
f9
02
7b
00
9e
00
f0
02
36
01
1c
01
c4
